memory_initialization_radix=2;

memory_initialization_vector=

000001111111,
001011001010,
000010111010,
100011000101,
000011010110,
100100100000,
100101101100,
000010110111,
100011000111,
000001010000,
000101101000,
000001100110,
000011101101,
100110011011,
000010101001,
001000100011,
000010001010,
100110001010,
100000110100,
100001111111,
000001100010,
000001101001,
000001100111,
100001011101,
100010011001,
100010010110,
000011011010,
100111011010,
100000110101,
000001000101,
100010100111,
000001111010,
100000010010,
100011110000,
000000101001,
100001000100,
100001101000,
100010110110,
000000001111,
100111011000,
100001100101,
100010001011,
100011101001,
000010100111,
100010111011,
000010001010,
000011111001,
100000101000,
000001000111,
000010100011,
100000010100,
000010001010,
100101000011,
000100011100,
100011111101,
100111010100,
000101100010,
100000010000,
000001110010,
100001011100,
100100000101,
101100010010,
000010100000,
100001001001,
100000110010,
000001100111,
100101101011,
100010111010,
000100100101,
000010011001,
100101001000,
101000110100,
100010010010,
000000110110,
000011110001,
000000010111,
100100011111,
000001001110,
100100101100,
100011110110,
100010100111,
100100111010,
100001000101,
100011100110,
100001001001,
100001110110,
100001101000,
100010000000,
000100111011,
000010011100,
000000001111,
100101110111,
100110100000,
100111110110,
001010011010,
000011111000,
000001000001,
100011111001,
100100100101,
000010001100,
000110010000,
100110110001,
100001110011,
100000010101,
100111111101,
000011010111,
100001101010,
000111101001,
100001100100,
000001101000,
100100100100,
100010011111,
100100101011,
000001100100,
000101001101,
100010010111,
000001101111,
100010000001,
000000011010,
000100110010,
000000011110,
100100001001,
100011011011,
100000101011,
100000110001,
100011011101,
000000101110,
000101000100,
100001000000,
100000110100,
101000110011,
100011000110,
100101100100,
100001100010,
000010000110,
000110000101,
000111001100,
100000011101,
100001010001,
000011010001,
000001111101,
000011000011,
000011000111,
100101111010,
000010001010,
100000010111,
100011000010,
100010110001,
000101001000,
100011001111,
100100111100,
000000110110,
001000000010,
000000000110,
000001001110,
100011110000,
000110101100,
000000011111,
000010000111,
100011110011,
000011011010,
000001100011,
100100100111,
000000001010,
100001110011,
000000011011,
100001000000,
100000110000,
100100001000,
100001010010,
000011000100,
000110111110,
100100101001,
001001100000,
000110000110,
000000101011,
100001001101,
100010110010,
000011010101,
100010110001,
100001110110,
000011100010,
000001101111,
000011100101,
000010000001,
100001100110,
100010000011,
000011001011,
100010101011,
000100101111,
000011001010,
000001001001,
000000000000,
000001011101,
001110000110,
100000011100,
100110001110,
000111101010,
000010011100,
100010100101,
001010011110,
000010001101,
000001001011,
100011000111,
100100010000,
100111000100,
100001101100,
100100001101,
000010100101,
100001010001,
000111000100,
000110000010,
000000101001,
100001001000,
000100100110,
100100100101,
000010101100,
100010101011,
100001100110,
100010101011,
000010010011,
100011000111,
100100010000,
000010001101,
100001101100,
000001011100,
100001011010,
000001000101,
101010010000,
000001110111,
000111011010,
000100001010,
000011101001,
100000111101,
000000101110,
000000111110,
000000011000,
100011010100,
100001011010,
100000101100,
100001111011,
000011010110,
001010001001,
100101010010,
000000100000,
100101110001,
000101001101,
000101101000,
100110101001,
000111110001,
100100010101,
000000111010,
000100011001,
000000100101,
001001001011,
001011000000,
000000100011,
100111101000,
100001011101,
100011011001,
100011000011,
100100100000,
000000010100,
001000011011,
100010110111,
100001000111,
000100101010,
000100110110,
000001111100,
000100000110,
000011011110,
100001100001,
000001101101,
100001001100,
100011100110,
000010100010,
000000010001,
100000101111,
000001001010,
000011111100,
000001100100,
000000110001,
000001000111,
000000001101,
100011000110,
000011001001,
000101101000,
100010001000,
000111101101,
100000101101,
100000111110,
100011100101,
100011001010,
100011110011,
000001011010,
000110011000,
000010000111,
000011011010,
000101010111,
101001111111,
100000101010,
000001011010,
000010110111,
100101001110,
100100000001,
000011001010,
100000011101,
000010001101,
100011110101,
100110100010,
000011000010,
000100110001,
000110100001,
100110001000,
100101010110,
100101111001,
100000001010,
100010011101,
000101010000,
100101110100,
100110111110,
000000110100,
000100110001,
100011001101,
100101000100,
100000100110,
100110100010,
000000000100,
000011010100,
000000110111,
100111101000,
100010001001,
100001001101,
000111010000,
000011101010,
100000001110,
000101001111,
100100001011,
100001011001,
000101101001,
000110000000,
000010111010,
000001111101,
100010010110,
000010111110,
100011010100,
000010010011,
000001001000,
000100100011,
100001101101,
000010100010,
000011001011,
100011100101,
000000100111,
000110011000,
000000011100,
100001001111,
000001110100,
100001000110,
000001110001,
100000100010,
100000000100,
000001110101,
000101011100,
000001110011,
000110100101,
101000000111,
100001110011,
000000111100,
100011010101,
100101000110,
000010011101,
000010011100,
000001001010,
000001100101,
100011011110,
100001111111,
100000011011,
100010110000,
000001010100,
001001011101,
100001111011,
000010100101,
100100001000,
000101010110,
100011111000,
000000110101,
100010011110,
000010000011,
000000000010,
100000001011,
001011110010,
100010100001,
100000001100,
001010101110,
100100100101,
000010001101,
100100010011,
000100000111,
000001010011,
000010100110,
100001000111,
000000111110,
000101111000,
101001000110,
100110100010,
000001101010,
100010100111,
100001001011,
100101111111,
100011100111,
100001100111,
100010111001,
100011011101,
100001101011,
100011110001,
000101010111,
100011111101,
000111010001,
100001011111,
100101110011,
100010011110,
000011101111,
000100001110,
000000101001,
000001001001,
000010100010,
100101110101,
100010010100,
100111010100,
100001110010,
000011110011,
000010110111,
001001001001,
000000101010,
101000101000,
000110110000,
000101001000,
100010010101,
000000111000,
000011000111,
000001100010,
000010110010,
100000011100,
100000001001,
000000010110,
100011001010,
000101101100,
000000000001,
000010101111,
100011011010,
100100010011,
100000010111,
100001000000,
000100110001,
000010011011,
000010001010,
100101110001,
100011110111,
000000110011,
100001011001,
000101001010,
000101010111,
100010010100,
000011100000,
000101100101,
000001010010,
000110011111,
000100001111,
000000110110,
000011100000,
000000110001,
100001101010,
000001011011,
000000001001,
100001011101,
000111000101,
000000111000,
001010111010,
100001001011,
000010010000,
000110010101,
001010111010,
000001001101,
100011001010,
000011001101,
100101010001,
100001000110,
000001000101,
000101111101,
000101101111,
100000000111,
000011101100,
100001010010,
000010101001,
000111101010,
000000101000,
100001001100,
100010000000,
000010110111,
000101010110,
001000100000,
000000001101,
000000101001,
100010100001,
000110011100,
100000010011,
100001111001,
001000101111,
000011001111,
000010110111,
100100000001,
000001101111,
000010000101,
100100010111,
100000111001,
100001100111,
000010000111,
100100000001,
000100010110,
000111001000,
100001001101,
100000000010,
000010000001,
000100110100,
000010000101,
000001100101,
100001111011,
100000111011,
000010011101,
000110101110,
000010010001,
100100110100,
000001101110,
100000010111,
100000111110,
100000111000,
100011100001,
100001010010,
100011001000,
100001011101,
000000011110,
000000101100,
100000110111,
100000100111,
000000001000,
000001110101,
000101001000,
000010011110,
100001001001,
000010011001,
100000111110,
100111000111,
101001011000,
100110110110,
100000111100,
100010011110,
100010111000,
000000001010,
100010101000,
100010100001,
000010011100,
000011001000,
001001101111,
000001001101,
000000001110,
100010010010,
100000110001,
100000001100,
100111000001,
100001000001,
000010111111,
100010010010,
000001111110,
000011111101,
000100010011,
000011000110,
101001000010,
100010010000,
000011100110,
000001100101,
000000000001,
000001101111,
000100100001,
000000100111,
100011000010,
100000101110,
100000110101,
000011100101,
000001101001,
000010001100,
000000100101,
100001011100,
000000001111,
000000110111,
100101100101,
000000101101,
000011101101,
100000011100,
000110010010,
000010001111,
100001101011,
100000100111,
100001000110,
000000111101,
000011000001,
100001001010,
000001110101,
000111000001,
000011101110,
000011010011,
100011010000,
100010001000,
000000111110,
100000011001,
100110100000,
100110000011,
000100000110,
100011000010,
001000010100,
101000111000,
000001110010,
000000000000,
100011000001,
000001100111,
100011001011,
000011011100,
000000010001,
100110100011,
101001101100,
100001001000,
000100100101,
000000101110,
000000001101,
000010110000,
100101100100,
000101101100,
100011100100,
000000001001,
100001011101,
000000100110,
100111110001,
000110000110,
000010001011,
001000000010,
000101101010,
000000000010,
100011110000,
100110111101,
000000000100,
000000111000,
000100001011,
100011110011,
000011001011,
000000010010,
100011000110,
000011000110,
000001000100,
100000111100,
000111100000,
000010011011,
100000011100,
000001000111,
000000010110,
000000101100,
000001110100,
100010011010,
100011001100,
000001011100,
000111100010,
100001001110,
100100000011,
100000111101,
100001111011,
100001010011,
000001111001,
100000100001,
100010011000,
100001110001,
100101010010,
100011011100,
100101101001,
100010000100,
100100010101,
100010110101,
100001001101,
100100110011,
100000000100,
000001010111,
100011110110,
000100011101,
100110010110,
100001100100,
100101111100,
100001011000,
100101010010,
100010010011,
100010111101,
100100101111,
101000010000,
000010010000,
001000000000,
001000111001,
100001111101,
100000001011,
100001110111,
000000010011,
100011101011,
100111101011,
100000001001,
100100111001,
100111100111,
001001011111,
100000111011,
000001100111,
000100110001,
100110101111,
000001101001,
000010000000,
000000010101,
000000101000,
100010000111,
000010111001,
100011011001,
100011001011,
000010111001,
000110101111,
100001100010,
100010000001,
000001101000,
000100010010,
000011110111,
000001000101,
100010100010,
000010100001,
100000010100,
000101100000,
100101101000,
000000100100,
000101001010,
100001111110,
100010011111,
100011101111,
100001000111,
100000110011,
000000100011,
100011100010,
000000010101,
100010011010,
100001011110,
100011010110,
100001001000,
001110010001,
001101101000,
000100100101,
000011001001,
100101000111,
100010010101,
100010011110,
000010001001,
000001111011,
000000011011,
100001010111,
100011101101,
000000000001,
000100100011,
000001101101,
000000101110,
000010101000,
000010010101,
100110011101,
000000000100,
100001101101,
101000001000,
100101010100,
100001010001,
000011010011,
100000111010,
000001000011,
100011100101,
101000101000,
000000011000,
100011110011,
000100101100,
