memory_initialization_radix=2;

memory_initialization_vector=

000010101110,
000100001001,
000011000010,
111101100110,
111010110101,
111010100100,
111101110100,
000010000010,
000110001100,
111111101000,
000011101100,
111011000110,
000101010111,
000000010100,
000100111110,
000010100011,
111101011011,
111100000111,
110110110001,
111111100011,
111111011010,
111110011011,
000011101010,
111111111101,
000010110000,
000011000011,
000001000101,
111100011101,
000010010011,
111110010011,
111010001101,
000011111001,
001001110010,
111100110011,
000000000100,
000100111011,
110111011110,
111000010011,
111111000001,
000100001100,
001101100011,
001100110110,
000100000100,
000010100100,
111101101110,
111000111000,
111111100111,
000000101110,
000000011001,
000110101000,
000000011101,
000110011010,
000011000101,
000011001111,
111010011000,
000011001011,
000010101000,
111101001101,
000001100010,
000001110100,
000010001101,
000010111001,
000100101011,
000000010101,
000010001011,
000000000011,
000011111100,
111101100111,
000100001110,
111011001001,
000011100010,
111111011101,
000001001111,
111110101000,
111111100000,
000001010001,
000011011110,
000011100011,
000001011010,
000101000001,
000001100000,
000100111000,
000111100110,
111011010010,
111011011111,
000101000000,
111111011001,
000001111010,
000110010001,
111101011101,
111100000111,
000000010111,
000000110000,
000010000110,
000010000001,
111010010011,
111111001100,
111111000010,
110110101000,
111010101111,
000011000110,
111011100110,
000000111110,
111000111110,
000001001011,
000011100010,
000100100100,
111110010001,
111100000101,
000011001001,
111111110101,
000000001111,
000100111011,
000111010100,
111100100000,
111110000011,
000000010110,
000010101100,
000101011000,
000010010001,
111110010010,
000100000001,
000010010101,
111111010111,
000010011000,
000000110100,
000111010011,
111111000000,
000101000100,
000100110000,
111101111000,
000010101110,
000011100110,
000110100011,
111010110100,
111100110010,
000000101001,
110110100010,
111001111001,
111000110001,
000010110011,
111101011111,
001100000001,
000011010000,
000011010001,
111111010111,
111110110000,
000011010001,
000100101110,
000101110110,
000101100000,
000100011000,
111111111010,
111111111001,
111100011111,
111111011110,
000001100100,
111010011100,
111110010111,
111110011000,
000000011000,
111110101100,
111110101101,
111010110001,
111011010111,
111010110101,
000001001111,
000001101111,
111000100001,
111011100000,
111110100001,
000010001011,
000000110110,
000011011100,
111010100110,
111101011000,
111010100110,
000000010111,
111100101111,
000011000011,
111001010000,
000000010101,
110111010110,
111100010111,
111111101100,
000001100110,
000001010101,
111000111110,
000001111001,
000011001101,
111100110100,
000100000100,
111101110000,
111100100111,
000000110000,
000010101000,
000001110110,
000001001100,
000010010111,
111110110001,
000010110000,
000010011111,
111001110001,
111101101100,
000011110010,
111110100011,
111101100010,
111110111110,
000011101110,
111010111110,
000011001000,
000011001101,
000010000011,
111101011001,
111011011111,
000011101001,
000001101001,
000000011111,
000000101110,
000001101000,
000001011110,
000100110010,
000010101010,
000000010110,
000011111011,
000111100110,
000001000001,
000011111101,
111011101001,
000100100110,
111101101111,
111110101010,
000010101111,
111110011000,
110111010010,
111000000100,
111010011101,
000010001100,
111110000000,
111110101011,
111011101101,
000111100001,
111111000010,
111100110010,
000001000010,
111001101110,
111101111010,
000000011001,
001000010111,
000001001100,
000001010000,
000011000111,
000100001010,
111101110111,
000001011011,
111001001110,
000001111001,
111011011110,
111111010111,
000000110101,
111100101000,
000101000111,
111101111100,
111101011110,
000010101110,
000101010010,
000000101101,
111011110011,
000100001011,
111100111111,
110111111010,
111100000010,
000110001011,
001000001111,
000000110111,
000000011000,
111000111000,
111000110100,
000011000000,
111111000000,
111100111000,
111101111010,
111110000111,
111111100000,
111011101000,
000000110110,
000001000111,
000011010011,
111101111111,
000110010111,
111110101011,
000010001001,
111110001011,
000110110101,
111110000110,
000011101110,
111110100101,
000011110010,
000100010111,
111111010111,
111110101010,
111101110000,
111111001111,
111110010001,
111000011111,
111110111011,
000001001011,
111100111111,
111101011011,
111101100101,
111111110110,
111100101110,
111011000001,
000110001011,
111101110001,
000010001011,
111011010100,
000111111010,
000000000010,
000100101010,
000011000101,
111111111110,
000001010001,
111101100001,
000000011101,
000011011011,
111101110111,
111101101110,
111111001100,
000011000011,
111100000100,
111011110011,
111110110110,
111110111100,
000010110001,
000100010100,
111011101111,
111000011000,
111001101110,
111011001101,
111010110110,
111111101010,
111110010110,
000110011011,
000010111101,
111111111001,
111011000011,
000000101000,
000001011001,
000001110010,
111110100010,
111100000000,
000110010001,
111101110011,
000000001011,
000010110010,
000000000111,
111100111100,
000110100011,
110100110111,
000001111000,
000110000001,
111111011110,
111111100011,
111101100010,
001001101111,
000110011111,
111111110111,
111110111111,
111100101110,
000110001010,
111001100101,
111100100010,
111110010000,
111011101001,
111011000111,
000010110101,
111111101110,
111110000100,
111110111110,
111111100101,
111100001101,
111111001010,
111100100100,
000011001111,
000001111101,
111110100111,
000001010101,
111100100110,
111101100100,
111101100001,
000000110101,
000000001110,
110111111001,
111100000101,
111110000011,
111111001001,
111101111101,
000010101000,
000101001100,
000100000010,
000001100011,
000100010101,
000100101111,
000010001110,
000111111111,
111110111111,
000001011001,
111110001011,
111101011101,
111100000101,
111100111101,
111010110111,
111110110011,
111101001011,
000110001111,
000010000111,
111000010001,
000100101011,
111101110111,
111001101100,
000010001000,
000100111010,
000001001011,
000001100111,
111100110100,
111111011010,
111111100111,
111111000101,
000010111100,
111100111010,
111110101101,
111110001101,
000001101010,
000101000010,
000111000111,
001000010111,
111011111111,
111101000101,
000111110001,
000001100000,
111101110010,
000101100111,
111001110010,
111110001001,
111100010000,
000100011110,
000111110101,
000010111110,
000101111111,
000110010000,
000010110010,
111101111110,
000011101000,
000001010100,
111011100001,
111101110001,
000101111111,
111011011001,
000001010011,
111100111101,
000010001111,
111100000100,
111010111110,
000000111001,
111100011101,
000101001111,
000010000101,
111110101001,
111110100111,
111000000000,
111111111101,
001000101111,
000001001111,
111011111010,
000001010110,
000010111011,
111010101101,
000010000111,
000101101110,
000000111010,
111110110011,
111011111100,
000000010010,
111011111101,
111110101011,
111110010101,
111111110100,
000001110111,
111110010100,
000000010010,
111001001001,
000100000001,
111100000010,
111110111000,
000000101011,
000011100101,
111100110011,
000000000111,
111101101010,
111011101010,
111111110111,
111111010100,
111111110110,
111011111000,
111101111100,
000001010101,
000010110010,
111110111011,
000111111101,
111011111100,
111010101001,
000110100011,
111100010011,
111111010000,
111100000010,
111011010100,
111100111010,
111111010110,
111110001101,
000011011110,
111110010101,
000101000101,
111100101101,
111001110001,
000001001011,
000101010010,
111111000100,
000100111100,
111111000010,
111101011110,
111011000011,
000100010010,
111010110100,
111110101100,
111100111000,
111100111010,
111110110111,
000000100101,
000000111100,
111100101000,
000001010111,
000010000100,
111111011100,
111111000110,
111011001010,
000001001111,
000110100101,
000011000000,
111111100011,
000010010100,
000000101111,
000010010011,
000000100000,
000000000010,
000110010111,
000000100000,
000010100011,
000011000111,
000101010100,
111111011000,
000010100001,
000000010001,
111110000100,
111111100110,
000010011011,
111101000001,
000110010101,
000111100010,
111101000101,
111110100111,
000001110110,
000001100111,
000101100011,
111111101110,
000110011000,
111100101010,
000000010101,
000001010011,
111100001000,
000000001111,
111110111100,
000011011100,
000010001100,
000111011011,
000011111111,
000000011010,
111000010101,
111111011110,
111100111011,
001001100100,
000000010100,
000001100000,
000001100101,
111111100011,
111000101100,
001000010111,
000001011100,
111100110101,
111111000110,
000110011000,
000000101000,
000000101110,
111110101010,
111001111010,
111101001010,
111100100010,
000000010010,
000000101000,
111111010001,
000010111011,
111110100111,
000000111100,
111100100010,
111100000100,
111110110101,
000011010011,
000000110010,
000001001100,
111101001010,
111101010000,
000010010011,
000001110010,
111010101101,
111010000000,
000100000100,
111111111001,
111111010111,
000001100001,
111111100101,
000000110110,
000001111000,
111001100010,
000000000100,
111111110110,
000001100111,
000001001110,
111011000010,
000000100010,
111100000000,
111110100101,
000000011011,
000011110101,
000001110111,
000001000100,
111010010100,
000000011100,
000100101100,
110111100010,
000001110110,
110110001010,
111110110010,
000001100110,
111001001011,
000011000010,
000000110100,
000011110101,
000001111101,
111110001110,
000001010011,
111111111011,
111000011101,
000001010111,
000001010110,
000001101101,
000000011101,
111111100010,
110101010000,
000110001100,
111100010011,
111101001000,
000011010101,
111101101111,
111100000000,
000010100100,
111110111111,
111011100001,
000110100110,
111110110001,
111100111010,
111010100101,
111110101101,
000110001110,
000010100001,
111011111001,
111111001100,
000011011100,
000110001111,
111111011111,
111100101111,
000001001010,
111011011110,
000011100010,
111100001110,
111101100001,
111000000010,
111100001100,
000001000010,
000100110011,
000100011100,
111001100011,
111110100101,
111111111110,
111111111100,
000000111000,
000000101110,
111101111011,
111111000011,
111101001111,
111101010001,
000011101111,
111011001011,
111110100100,
111011010001,
000010100101,
111011101001,
111001001101,
111010110110,
000010001100,
001000100011,
111101101100,
000011010011,
000110011101,
000100110111,
000110011101,
111101100110,
000100001010,
111111000001,
111010000100,
111110100101,
000001011011,
000111010110,
000011100110,
000001000001,
000011111100,
111101111100,
111010110000,
111101010000,
111011010001,
000011111011,
111111011101,
111011001111,
111111001011,
111100101000,
111110110000,
000101101101,
000101111110,
111101000010,
111110100000,
000001101101,
000000011101,
111101111101,
000100000110,
111010010101,
001010001100,
111110100100,
000001100111,
111101001011,
111011111011,
000100100010,
000000001010,
000000111011,
000000100000,
000010110010,
000110111101,
000010101010,
000010110000,
000100111101,
000011100110,
111011011010,
111110111100,
111001100000,
000010010101,
000111100111,
000110010101,
000011101100,
111100010000,
111101000011,
000000101110,
111111011110,
000011011110,
000101010000,
111111000000,
111111101110,
